TRT-7000-EntropyCalibration2
input: 3caa54fc
282: 3d1ae2e5
283: 3d0bbfd8
284: 3d4b285b
285: 3d30d0a6
286: 3d81ed2e
287: 3da7a56c
288: 3d4aaa0f
289: 3d3a8379
290: 3d196d39
291: 3d196d39
292: 3d631c59
293: 3d2e5b54
294: 3d326dd0
295: 3ccdc143
296: 3d515561
297: 3d25dcfe
298: 3d31985b
299: 3db3c437
300: 3d8eda88
301: 3d3b941b
302: 3d4ed943
303: 3cefc7a4
304: 3c38d72f
305: 3d494bed
306: 3d496b86
307: 3d281a37
308: 3d3a19dc
309: 3d23d7fc
310: 3d050c6b
311: 3c7a4355
312: 3d30fef2
313: 3c83a7a8
314: 3ced4116
315: 3d7c6ac5
316: 3d87f2b6
317: 3d1c01df
318: 3d03b6aa
319: 3ccce0f7
320: 3b95eed4
321: 3cc58a5f
322: 3d0af86e
323: 3d0a6d0d
324: 3cafb886
325: 3d12bddd
326: 3d10bfa1
327: 3c7b0d08
328: 3d15565e
329: 3bec4105
330: 3c8ffc83
331: 3d393043
332: 3d395390
333: 3caa9435
334: 3d01e783
335: 3cf464e6
336: 3bdc8698
337: 3cdbe1cc
338: 3d0c704c
339: 3d078693
340: 3c5d594b
341: 3cb6b4df
342: 3cad4a1c
343: 3c077ebe
344: 3cfad017
345: 3b82b824
346: 3c95de05
347: 3d0d09f6
348: 3d0271cd
349: 3c1a0e0f
350: 3cdf074b
351: 3c742efe
352: 3b9584d6
353: 3d9b4353
354: 3d9b638b
355: 3da6c4c8
356: 3dae5e6d
357: 3d30a11a
358: 3d2c7e3b
359: 3d051004
360: 3d3e1e83
361: 3d179847
362: 3cbf0bc1
363: 3d122c10
364: 3d05edb0
366: 3d10305e
367: 3be4a023
368: 3d3f1a50
369: 3d3426c1
370: 3c518a7f
371: 3d38a8df
372: 3d3fe6b5
373: 3c5bb636
374: 3d3441b4
375: 3d10305e
376: 3d10305e
378: 3cfbfb75
379: 3d0f9271
380: 3d26e539
381: 3d70f04c
382: 3c3433c9
383: 3d6fe865
384: 3d664529
385: 3c49672f
386: 3d635174
387: 3d635174
388: 3c71393e
389: 3d83c3f2
390: 3d70f04c
391: 3d70f04c
392: 3dcdf113
393: 3d1f5a57
394: 3cfe617f
395: 3ce91714
396: 3d6c31e7
397: 3d5fc0db
output: 3e144373
